{
  "mergeable_ranks": {
    "00": 0,
    "01": 1,
    "02": 2,
    "03": 3,
    "04": 4,
    "05": 5,
    "06": 6,
    "07": 7,
    "08": 8,
    "09": 9,
    "0a": 10,
    "0b": 11,
    "0c": 12,
    "0d": 13,
    "0e": 14,
    "0f": 15,
    "10": 16,
    "11": 17,
    "12": 18,
    "13": 19,
    "14": 20,
    "15": 21,
    "16": 22,
    "17": 23,
    "18": 24,
    "19": 25,
    "1a": 26,
    "1b": 27,
    "1c": 28,
    "1d": 29,
    "1e": 30,
    "1f": 31,
    "20": 32,
    "21": 33,
    "22": 34,
    "23": 35,
    "24": 36,
    "25": 37,
    "26": 38,
    "27": 39,
    "28": 40,
    "29": 41,
    "2a": 42,
    "2b": 43,
    "2c": 44,
    "2d": 45,
    "2e": 46,
    "2f": 47,
    "30": 48,
    "31": 49,
    "32": 50,
    "33": 51,
    "34": 52,
    "35": 53,
    "36": 54,
    "37": 55,
    "38": 56,
    "39": 57,
    "3a": 58,
    "3b": 59,
    "3c": 60,
    "3d": 61,
    "3e": 62,
    "3f": 63,
    "40": 64,
    "41": 65,
    "42": 66,
    "43": 67,
    "44": 68,
    "45": 69,
    "46": 70,
    "47": 71,
    "48": 72,
    "49": 73,
    "4a": 74,
    "4b": 75,
    "4c": 76,
    "4d": 77,
    "4e": 78,
    "4f": 79,
    "50": 80,
    "51": 81,
    "52": 82,
    "53": 83,
    "54": 84,
    "55": 85,
    "56": 86,
    "57": 87,
    "58": 88,
    "59": 89,
    "5a": 90,
    "5b": 91,
    "5c": 92,
    "5d": 93,
    "5e": 94,
    "5f": 95,
    "60": 96,
    "61": 97,
    "62": 98,
    "63": 99,
    "64": 100,
    "65": 101,
    "66": 102,
    "67": 103,
    "68": 104,
    "69": 105,
    "6a": 106,
    "6b": 107,
    "6c": 108,
    "6d": 109,
    "6e": 110,
    "6f": 111,
    "70": 112,
    "71": 113,
    "72": 114,
    "73": 115,
    "74": 116,
    "75": 117,
    "76": 118,
    "77": 119,
    "78": 120,
    "79": 121,
    "7a": 122,
    "7b": 123,
    "7c": 124,
    "7d": 125,
    "7e": 126,
    "7f": 127,
    "80": 128,
    "81": 129,
    "82": 130,
    "83": 131,
    "84": 132,
    "85": 133,
    "86": 134,
    "87": 135,
    "88": 136,
    "89": 137,
    "8a": 138,
    "8b": 139,
    "8c": 140,
    "8d": 141,
    "8e": 142,
    "8f": 143,
    "90": 144,
    "91": 145,
    "92": 146,
    "93": 147,
    "94": 148,
    "95": 149,
    "96": 150,
    "97": 151,
    "98": 152,
    "99": 153,
    "9a": 154,
    "9b": 155,
    "9c": 156,
    "9d": 157,
    "9e": 158,
    "9f": 159,
    "a0": 160,
    "a1": 161,
    "a2": 162,
    "a3": 163,
    "a4": 164,
    "a5": 165,
    "a6": 166,
    "a7": 167,
    "a8": 168,
    "a9": 169,
    "aa": 170,
    "ab": 171,
    "ac": 172,
    "ad": 173,
    "ae": 174,
    "af": 175,
    "b0": 176,
    "b1": 177,
    "b2": 178,
    "b3": 179,
    "b4": 180,
    "b5": 181,
    "b6": 182,
    "b7": 183,
    "b8": 184,
    "b9": 185,
    "ba": 186,
    "bb": 187,
    "bc": 188,
    "bd": 189,
    "be": 190,
    "bf": 191,
    "c0": 192,
    "c1": 193,
    "c2": 194,
    "c3": 195,
    "c4": 196,
    "c5": 197,
    "c6": 198,
    "c7": 199,
    "c8": 200,
    "c9": 201,
    "ca": 202,
    "cb": 203,
    "cc": 204,
    "cd": 205,
    "ce": 206,
    "cf": 207,
    "d0": 208,
    "d1": 209,
    "d2": 210,
    "d3": 211,
    "d4": 212,
    "d5": 213,
    "d6": 214,
    "d7": 215,
    "d8": 216,
    "d9": 217,
    "da": 218,
    "db": 219,
    "dc": 220,
    "dd": 221,
    "de": 222,
    "df": 223,
    "e0": 224,
    "e1": 225,
    "e2": 226,
    "e3": 227,
    "e4": 228,
    "e5": 229,
    "e6": 230,
    "e7": 231,
    "e8": 232,
    "e9": 233,
    "ea": 234,
    "eb": 235,
    "ec": 236,
    "ed": 237,
    "ee": 238,
    "ef": 239,
    "f0": 240,
    "f1": 241,
    "f2": 242,
    "f3": 243,
    "f4": 244,
    "f5": 245,
    "f6": 246,
    "f7": 247,
    "f8": 248,
    "f9": 249,
    "fa": 250,
    "fb": 251,
    "fc": 252,
    "fd": 253,
    "fe": 254,
    "ff": 255,
    "2074": 256,
    "7265": 257,
    "2069": 258,
    "6c65": 259,
    "6f75": 260,
    "6865": 261,
    "2061": 262,
    "7374": 263,
    "6f72": 264,
    "2079": 265,
    "7261": 266,
    "696e": 267,
    "6174": 268,
    "7365": 269,
    "2049": 270,
    "206d": 271,
    "20746f": 272,
    "6f6e": 273,
    "657374": 274,
    "20746865": 275,
    "656c": 276,
    "2063": 277,
    "20796f75": 278,
    "6f64": 279,
    "6e64": 280,
    "6c6f": 281,
    "3e3e": 282,
    "6974": 283,
    "2073": 284,
    "7261696e": 285,
    "7373": 286,
    "2066": 287,
    "206d65": 288,
    "2070": 289,
    "6f6d": 290,
    "6572": 291,
    "2064": 292,
    "2048": 293,
    "626c65": 294,
    "6374": 295,
    "74657374": 296,
    "736574": 297,
    "203d": 298,
    "20696e": 299,
    "616e": 300,
    "2077": 301,
    "7974": 302,
    "797468": 303,
    "206974": 304,
    "6d70": 305,
    "6f7265": 306,
    "6f64656c": 307,
    "6373": 308,
    "686174": 309,
    "696c65": 310,
    "737369": 311,
    "206e": 312,
    "206865": 313,
    "7974686f6e": 314,
    "2057": 315,
    "2062": 316,
    "6c6561": 317,
    "206973": 318,
    "6060": 319,
    "726e": 320,
    "6d706f72": 321,
    "6d706f7274": 322,
    "696f6e": 323,
    "20747261696e": 324,
    "706c": 325,
    "706c6974": 326,
    "6363": 327,
    "636375": 328,
    "6363757261": 329,
    "636375726163": 330,
    "63637572616379": 331,
    "206c6f": 332,
    "6164": 333,
    "617461": 334,
    "617461736574": 335,
    "637376": 336,
    "696e67": 337,
    "747261696e": 338,
    "726564": 339,
    "726f72": 340,
    "2054": 341,
    "6179": 342,
    "2050": 343,
    "20507974686f6e": 344,
    "20636f64": 345,
    "20636f6465": 346,
    "6c64": 347,
    "206265": 348,
    "2061626c65": 349,
    "206f75": 350,
    "206f7574": 351,
    "6672": 352,
    "66726f6d": 353,
    "20736b": 354,
    "20736b6c6561": 355,
    "20736b6c6561726e": 356,
    "20696d706f7274": 357,
    "616e64": 358,
    "6d6f64656c": 359,
    "6d65": 360,
    "20616e64": 361,
    "616c": 362,
    "7565": 363,
    "70726564": 364,
    "204974": 365,
    "2773": 366,
    "276d": 367,
    "206572": 368,
    "206572726f72": 369,
    "6f74": 370,
    "2774": 371,
    "2066696c65": 372,
    "72656374": 373,
    "7665": 374,
    "2048656c": 375,
    "2048656c6c6f": 376,
    "6f77": 377,
    "2061737369": 378,
    "20617373697374": 379,
    "2068656c": 380,
    "2068656c70": 381,
    "20776974": 382,
    "2077697468": 383,
    "6f756c64": 384,
    "20636865": 385,
    "2063686563": 386,
    "20636865636b": 387,
    "20666f72": 388,
    "6f7572": 389,
    "207365": 390,
    "657265": 391,
    "606060": 392,
    "2052": 393,
    "2052616e64": 394,
    "2052616e646f6d": 395,
    "2052616e646f6d46": 396,
    "2052616e646f6d466f7265": 397,
    "2052616e646f6d466f72657374": 398,
    "2052616e646f6d466f7265737443": 399,
    "2052616e646f6d466f72657374436c": 400,
    "2052616e646f6d466f72657374436c61": 401,
    "2052616e646f6d466f72657374436c61737369": 402,
    "2052616e646f6d466f72657374436c6173736966": 403,
    "2052616e646f6d466f72657374436c617373696669": 404,
    "2052616e646f6d466f72657374436c6173736966696572": 405,
    "6374696f6e": 406,
    "73706c6974": 407,
    "206163637572616379": 408,
    "7363": 409,
    "73636f7265": 410,
    "206173": 411,
    "207064": 412,
    "206c6f6164": 413,
    "64617461736574": 414,
    "2073706c6974": 415,
    "20696e74": 416,
    "20696e746f": 417,
    "7075": 418,
    "707574": 419,
    "2065": 420,
    "6e74": 421,
    "206466": 422,
    "696c6f": 423,
    "696c6f63": 424,
    "5b3a": 425,
    "5b3a2c": 426,
    "5d2e": 427,
    "76616c": 428,
    "76616c7565": 429,
    "76616c756573": 430,
    "20747261696e696e67": 431,
    "2074657374": 432,
    "20736574": 433,
    "617465": 434,
    "206d6f64656c": 435,
    "2059": 436,
    "2067": 437,
    "2057686174": 438,
    "207072": 439,
    "2070726f": 440,
    "2070726f626c65": 441,
    "2070726f626c656d": 442,
    "207265": 443,
    "20616e": 444,
    "206d657373": 445,
    "206d65737361": 446,
    "206d6573736167": 447,
    "206d657373616765": 448,
    "46696c65": 449,
    "206e6f74": 450,
    "2074686174": 451,
    "757265": 452,
    "20636f72": 453,
    "20636f7272656374": 454,
    "206469": 455,
    "2e2e": 456,
    "6b65": 457,
    "2068": 458,
    "205468": 459,
    "205468616e": 460,
    "205468616e6b": 461,
    "617665": 462,
    "20486f77": 463,
    "2063616e": 464,
    "20746f64": 465,
    "20746f646179": 466,
    "206e65": 467,
    "206e6565": 468,
    "206e656564": 469,
    "206d79": 470,
    "20576f756c64": 471,
    "204f": 472,
    "204f66": 473,
    "20636f7572": 474,
    "20636f75727365": 475,
    "2043": 476,
    "2043616e": 477,
    "20706c6561": 478,
    "20706c65617365": 479,
    "2073656e64": 480,
    "2048657265": 481,
    "707974686f6e": 482,
    "656e": 483,
    "656e7365": 484,
    "656e73656d": 485,
    "656e73656d626c65": 486,
    "73656c65": 487,
    "73656c656374696f6e": 488,
    "6d6574": 489,
    "6d657472": 490,
    "6d65747269": 491,
    "6d657472696373": 492,
    "696d706f7274": 493,
    "2070616e64": 494,
    "2070616e6461": 495,
    "2070616e646173": 496,
    "2064617461736574": 497,
    "6466": 498,
    "72656164": 499,
    "2827": 500,
    "2729": 501,
    "20696e707574": 502,
    "206f7574707574": 503,
    "20656c65": 504,
    "20656c656d65": 505,
    "20656c656d656e74": 506,
    "20656c656d656e7473": 507,
    "203a": 508,
    "203a2d": 509,
    "202d": 510,
    "2078": 511,
    "7369": 512,
    "73697a": 513,
    "73697a65": 514,
    "207261": 515,
    "2072616e64": 516,
    "2072616e646f6d": 517,
    "7374617465": 518,
    "65737469": 519,
    "657374696d": 520,
    "657374696d6174": 521,
    "657374696d61746f72": 522,
    "657374696d61746f7273": 523,
    "3130": 524,
    "313030": 525,
    "666974": 526,
    "2070726564": 527,
    "207072656469": 528,
    "2070726564696374696f6e": 529,
    "2070726564696374696f6e73": 530,
    "7072656469": 531,
    "70726564696374": 532,
    "7072": 533,
    "7072696e": 534,
    "7072696e74": 535,
    "4163637572616379": 536,
    "207b": 537,
    "6163637572616379": 538,
    "297d": 539,
    "297d22": 540,
    "297d2229": 541,
    "20596f7572": 542,
    "206c6f6f": 543,
    "206c6f6f6b": 544,
    "206c6f6f6b73": 545,
    "20676f": 546,
    "20676f6f64": 547,
    "207369": 548,
    "2073696d70": 549,
    "2073696d706c65": 550,
    "207374": 551,
    "2073747261": 552,
    "207374726169": 553,
    "20737472616967": 554,
    "2073747261696768": 555,
    "207374726169676874": 556,
    "20737472616967687466": 557,
    "207374726169676874666f72": 558,
    "207374726169676874666f7277": 559,
    "207374726169676874666f727761": 560,
    "207374726169676874666f72776172": 561,
    "207374726169676874666f7277617264": 562,
    "20736565": 563,
    "207365656d": 564,
    "207365656d73": 565,
    "20576865": 566,
    "205768656e": 567,
    "205768656e65": 568,
    "205768656e6576": 569,
    "205768656e65766572": 570,
    "207472": 571,
    "20747279": 572,
    "2072": 573,
    "207275": 574,
    "2072756e": 575,
    "20726563": 576,
    "2072656365": 577,
    "207265636569": 578,
    "20726563656976": 579,
    "20726563656976696e67": 580,
    "20736179": 581,
    "2073617973": 582,
    "2060": 583,
    "46696c654e": 584,
    "46696c654e6f74": 585,
    "46696c654e6f7446": 586,
    "46696c654e6f74466f75": 587,
    "46696c654e6f74466f756e64": 588,
    "46696c654e6f74466f756e6445": 589,
    "46696c654e6f74466f756e644572": 590,
    "46696c654e6f74466f756e644572726f72": 591,
    "2046696c65": 592,
    "2764": 593,
    "20646f": 594,
    "20646f65": 595,
    "20646f6573": 596,
    "206578": 597,
    "20657869": 598,
    "206578697374": 599,
    "2054686174": 600,
    "207479": 601,
    "20747970": 602,
    "2074797069": 603,
    "207479706963": 604,
    "207479706963616c": 605,
    "207479706963616c6c": 606,
    "207479706963616c6c79": 607,
    "206d65616e": 608,
    "206d65616e73": 609,
    "2069736e": 610,
    "2066696e": 611,
    "2066696e64": 612,
    "2027": 613,
    "2041": 614,
    "20417265": 615,
    "2073757265": 616,
    "20646972656374": 617,
    "206469726563746f72": 618,
    "206469726563746f7279": 619,
    "20486d": 620,
    "20486d6d": 621,
    "206c65": 622,
    "206c6574": 623,
    "2e2e2e": 624,
    "2053": 625,
    "2053757265": 626,
    "207461": 627,
    "2074616b65": 628,
    "20796f7572": 629,
    "207469": 630,
    "2074696d65": 631,
    "204966": 632,
    "206c6f63": 633,
    "206c6f636174": 634,
    "206c6f636174696f6e": 635,
    "20776f6e": 636,
    "207475": 637,
    "207475726e": 638,
    "207475726e73": 639,
    "20686164": 640,
    "20646966": 641,
    "2064696666": 642,
    "2064696666657265": 643,
    "20646966666572656e74": 644,
    "20666f": 645,
    "20666f6c64": 646,
    "20666f6c646572": 647,
    "20546865": 648,
    "20697373": 649,
    "206973737565": 650,
    "20726573": 651,
    "207265736f": 652,
    "207265736f6c": 653,
    "207265736f6c7665": 654,
    "207265736f6c766564": 655,
    "204e": 656,
    "204e6f": 657,
    "2068657265": 658,
    "204973": 659,
    "207468657265": 660,
    "20616e797468": 661,
    "20616e797468696e67": 662,
    "20656c": 663,
    "20656c7365": 664,
    "20776f756c64": 665,
    "206c": 666,
    "206c69": 667,
    "206c696b65": 668,
    "20616c": 669,
    "20616c6c": 670,
    "206e6f77": 671,
    "20596f75": 672,
    "277265": 673,
    "2077656c": 674,
    "2077656c63": 675,
    "2077656c636f6d": 676,
    "2077656c636f6d65": 677,
    "2044": 678,
    "20446f6e": 679,
    "20686573": 680,
    "206865736974": 681,
    "206865736974617465": 682,
    "2061736b": 683,
    "206966": 684,
    "2068617665": 685,
    "206d6f7265": 686,
    "2071": 687,
    "207175": 688,
    "207175657374": 689,
    "207175657374696f6e": 690,
    "207175657374696f6e73": 691,
    "2048617665": 692,
    "20677265": 693,
    "206772656174": 694,
    "20646179": 695
  },
  "pat_str": "('s|'t|'re|'ve|'m|'ll|'d| ?[\\p{L}]+| ?[\\p{N}]+| ?[^\\s\\p{L}\\p{N}]+|\\s+(?!\\S)|\\s+)|(```[\\s\\S]*?```)|(`[^`]*`)|(\\[[^\\]]*\\]\\([^)]*\\))"
}